#ifndef LAYER_MODEL_H
#define LAYER_MODEL_H


unsigned int layer_model_len = 2884;
unsigned char layer_model[] = {
 0x1c, 0x00, 0x00, 0x00, 0x54, 0x46, 0x4c, 0x33, 0x14, 0x00, 0x20, 0x00,
  0x1c, 0x00, 0x18, 0x00, 0x14, 0x00, 0x10, 0x00, 0x0c, 0x00, 0x00, 0x00,
  0x08, 0x00, 0x04, 0x00, 0x14, 0x00, 0x00, 0x00, 0x1c, 0x00, 0x00, 0x00,
  0x98, 0x00, 0x00, 0x00, 0xf0, 0x00, 0x00, 0x00, 0x80, 0x06, 0x00, 0x00,
  0x90, 0x06, 0x00, 0x00, 0xe0, 0x0a, 0x00, 0x00, 0x03, 0x00, 0x00, 0x00,
  0x01, 0x00, 0x00, 0x00, 0x10, 0x00, 0x00, 0x00, 0x00, 0x00, 0x0a, 0x00,
  0x10, 0x00, 0x0c, 0x00, 0x08, 0x00, 0x04, 0x00, 0x0a, 0x00, 0x00, 0x00,
  0x0c, 0x00, 0x00, 0x00, 0x1c, 0x00, 0x00, 0x00, 0x3c, 0x00, 0x00, 0x00,
  0x0f, 0x00, 0x00, 0x00, 0x73, 0x65, 0x72, 0x76, 0x69, 0x6e, 0x67, 0x5f,
  0x64, 0x65, 0x66, 0x61, 0x75, 0x6c, 0x74, 0x00, 0x01, 0x00, 0x00, 0x00,
  0x04, 0x00, 0x00, 0x00, 0x90, 0xff, 0xff, 0xff, 0x07, 0x00, 0x00, 0x00,
  0x04, 0x00, 0x00, 0x00, 0x08, 0x00, 0x00, 0x00, 0x6f, 0x75, 0x74, 0x70,
  0x75, 0x74, 0x5f, 0x30, 0x00, 0x00, 0x00, 0x00, 0x01, 0x00, 0x00, 0x00,
  0x04, 0x00, 0x00, 0x00, 0x6a, 0xf9, 0xff, 0xff, 0x04, 0x00, 0x00, 0x00,
  0x0c, 0x00, 0x00, 0x00, 0x6b, 0x65, 0x72, 0x61, 0x73, 0x5f, 0x74, 0x65,
  0x6e, 0x73, 0x6f, 0x72, 0x00, 0x00, 0x00, 0x00, 0x02, 0x00, 0x00, 0x00,
  0x34, 0x00, 0x00, 0x00, 0x04, 0x00, 0x00, 0x00, 0xdc, 0xff, 0xff, 0xff,
  0x0a, 0x00, 0x00, 0x00, 0x04, 0x00, 0x00, 0x00, 0x13, 0x00, 0x00, 0x00,
  0x43, 0x4f, 0x4e, 0x56, 0x45, 0x52, 0x53, 0x49, 0x4f, 0x4e, 0x5f, 0x4d,
  0x45, 0x54, 0x41, 0x44, 0x41, 0x54, 0x41, 0x00, 0x08, 0x00, 0x0c, 0x00,
  0x08, 0x00, 0x04, 0x00, 0x08, 0x00, 0x00, 0x00, 0x09, 0x00, 0x00, 0x00,
  0x04, 0x00, 0x00, 0x00, 0x13, 0x00, 0x00, 0x00, 0x6d, 0x69, 0x6e, 0x5f,
  0x72, 0x75, 0x6e, 0x74, 0x69, 0x6d, 0x65, 0x5f, 0x76, 0x65, 0x72, 0x73,
  0x69, 0x6f, 0x6e, 0x00, 0x0b, 0x00, 0x00, 0x00, 0x8c, 0x05, 0x00, 0x00,
  0x84, 0x05, 0x00, 0x00, 0x5c, 0x05, 0x00, 0x00, 0x4c, 0x02, 0x00, 0x00,
  0x3c, 0x01, 0x00, 0x00, 0xac, 0x00, 0x00, 0x00, 0xa4, 0x00, 0x00, 0x00,
  0x9c, 0x00, 0x00, 0x00, 0x94, 0x00, 0x00, 0x00, 0x74, 0x00, 0x00, 0x00,
  0x04, 0x00, 0x00, 0x00, 0x12, 0xfa, 0xff, 0xff, 0x04, 0x00, 0x00, 0x00,
  0x60, 0x00, 0x00, 0x00, 0x0c, 0x00, 0x00, 0x00, 0x08, 0x00, 0x0e, 0x00,
  0x08, 0x00, 0x04, 0x00, 0x08, 0x00, 0x00, 0x00, 0x10, 0x00, 0x00, 0x00,
  0x28, 0x00, 0x00, 0x00, 0x00, 0x00, 0x06, 0x00, 0x08, 0x00, 0x04, 0x00,
  0x06, 0x00, 0x00, 0x00, 0x04, 0x00, 0x00, 0x00, 0x01, 0x00, 0x00, 0x00,
  0xea, 0x03, 0x00, 0x00, 0x0c, 0x00, 0x18, 0x00, 0x14, 0x00, 0x10, 0x00,
  0x0c, 0x00, 0x04, 0x00, 0x0c, 0x00, 0x00, 0x00, 0xe4, 0x78, 0x1f, 0x11,
  0x7b, 0x6b, 0xc7, 0xe1, 0x02, 0x00, 0x00, 0x00, 0x02, 0x00, 0x00, 0x00,
  0x04, 0x00, 0x00, 0x00, 0x06, 0x00, 0x00, 0x00, 0x32, 0x2e, 0x32, 0x30,
  0x2e, 0x30, 0x00, 0x00, 0x7e, 0xfa, 0xff, 0xff, 0x04, 0x00, 0x00, 0x00,
  0x10, 0x00, 0x00, 0x00, 0x31, 0x2e, 0x35, 0x2e, 0x30, 0x00, 0x00, 0x00,
  0x00, 0x00, 0x00, 0x00, 0x00, 0x00, 0x00, 0x00, 0xf4, 0xf6, 0xff, 0xff,
  0xf8, 0xf6, 0xff, 0xff, 0xfc, 0xf6, 0xff, 0xff, 0xa6, 0xfa, 0xff, 0xff,
  0x04, 0x00, 0x00, 0x00, 0x80, 0x00, 0x00, 0x00, 0x00, 0x00, 0x00, 0x00,
  0xf0, 0x54, 0x55, 0xbe, 0x00, 0x00, 0x00, 0x00, 0x0e, 0x77, 0x71, 0xbe,
  0xfa, 0x49, 0x83, 0x3d, 0xc7, 0xcc, 0xb4, 0x3e, 0x95, 0x11, 0x07, 0xbe,
  0xc8, 0x3e, 0xb5, 0x3b, 0xb2, 0xb6, 0xfb, 0xbc, 0x3a, 0xff, 0x40, 0xbe,
  0x00, 0x00, 0x00, 0x00, 0xf8, 0xf1, 0x5f, 0x3e, 0xc1, 0x5f, 0x93, 0xbe,
  0x49, 0x8f, 0x0d, 0x3e, 0x00, 0x00, 0x00, 0x00, 0x8d, 0x82, 0x84, 0xbe,
  0x41, 0xe2, 0x9e, 0xbd, 0x00, 0x00, 0x00, 0x00, 0xe3, 0x81, 0x08, 0x3e,
  0x10, 0xcf, 0x0e, 0xbe, 0x00, 0x00, 0x00, 0x00, 0xea, 0xf1, 0x5b, 0xbe,
  0xa0, 0xda, 0xce, 0x3b, 0xa2, 0x74, 0x25, 0x3e, 0x0f, 0x15, 0x30, 0x3e,
  0xae, 0x70, 0x45, 0xbc, 0x96, 0xe7, 0x94, 0xbd, 0xbd, 0x9d, 0xcd, 0xbb,
  0xa3, 0x6f, 0x04, 0x3e, 0x34, 0xb2, 0xff, 0x3e, 0x00, 0x00, 0x00, 0x00,
  0xdc, 0xa4, 0xbd, 0xbc, 0x32, 0xfb, 0xff, 0xff, 0x04, 0x00, 0x00, 0x00,
  0x00, 0x01, 0x00, 0x00, 0xa6, 0x11, 0x91, 0xbe, 0x99, 0x83, 0x83, 0x3e,
  0x7b, 0x44, 0x5c, 0x3e, 0x31, 0xb2, 0xd5, 0x3e, 0x95, 0x57, 0xcd, 0xbe,
  0xe5, 0x69, 0x99, 0x3e, 0x5f, 0xeb, 0xa3, 0x3e, 0x5b, 0x4c, 0x2d, 0x3f,
  0x4c, 0xa7, 0x04, 0x3c, 0x90, 0x53, 0x1d, 0xbf, 0x4a, 0xb1, 0xae, 0x3c,
  0xde, 0x65, 0xde, 0xbf, 0xcf, 0xff, 0x2f, 0x3c, 0xba, 0x18, 0x48, 0xbe,
  0x07, 0x0d, 0xa0, 0x3e, 0x05, 0x0b, 0xdf, 0x3d, 0x3a, 0x23, 0xe3, 0xbe,
  0x3d, 0x87, 0x61, 0xbe, 0x09, 0xc8, 0x26, 0x3e, 0xd3, 0xf7, 0x05, 0x3f,
  0x94, 0x2a, 0xe9, 0xbd, 0x9a, 0xff, 0x41, 0x3e, 0x72, 0x54, 0x75, 0x3d,
  0x93, 0x71, 0x65, 0xbf, 0x6d, 0x82, 0xea, 0x3d, 0xae, 0xf2, 0xbe, 0x3d,
  0xf8, 0xf2, 0x0b, 0xbf, 0x5c, 0x3a, 0x79, 0xbe, 0xd5, 0xed, 0xa4, 0xbe,
  0x18, 0xe7, 0x55, 0xbd, 0x27, 0x01, 0x9e, 0xbe, 0x62, 0x74, 0xb5, 0xbd,
  0xdf, 0x4e, 0x20, 0x3d, 0xbb, 0xbf, 0xc5, 0xbd, 0x80, 0xac, 0x7c, 0xbb,
  0xee, 0x10, 0x3d, 0x3e, 0x0c, 0x9e, 0x6e, 0x3e, 0xc1, 0x5b, 0xd9, 0x3d,
  0x6a, 0x92, 0x7d, 0x3e, 0x0f, 0x76, 0x07, 0x3f, 0xe1, 0x92, 0xc5, 0xbe,
  0x59, 0x01, 0xa9, 0x3e, 0xc0, 0xa3, 0xee, 0x3d, 0x0a, 0x8b, 0xc9, 0xbd,
  0x59, 0xe0, 0xfb, 0x3d, 0xb0, 0xc1, 0xc8, 0x3e, 0x7a, 0xd0, 0x0d, 0x3e,
  0xd2, 0xc1, 0x53, 0xbe, 0xed, 0x2d, 0x1b, 0xbf, 0x30, 0x51, 0xfd, 0xbe,
  0xd7, 0xbb, 0xdc, 0x3d, 0xd0, 0x7a, 0xf4, 0xbd, 0x07, 0x7e, 0x14, 0xbf,
  0x3c, 0x34, 0x90, 0xbe, 0xcd, 0x17, 0x1d, 0x3e, 0x89, 0xd5, 0xa4, 0x3e,
  0x08, 0x2f, 0x1b, 0xbf, 0xdd, 0x6a, 0x8a, 0xbe, 0x83, 0xb9, 0x65, 0xbd,
  0xef, 0x12, 0x34, 0xbf, 0x1d, 0x00, 0xc6, 0xbe, 0x5a, 0xb6, 0x40, 0x3e,
  0x27, 0xfe, 0xc3, 0x3d, 0xd8, 0x72, 0x9d, 0x3e, 0x3e, 0xfc, 0xff, 0xff,
  0x04, 0x00, 0x00, 0x00, 0x00, 0x03, 0x00, 0x00, 0x53, 0xff, 0xa4, 0xbe,
  0x60, 0x26, 0xb3, 0x3e, 0x5b, 0xeb, 0xbc, 0x3e, 0x47, 0x80, 0xc4, 0x3e,
  0x32, 0xd5, 0xa9, 0xbe, 0x03, 0x38, 0x47, 0xc0, 0x03, 0xb7, 0xa2, 0xbe,
  0x75, 0x57, 0x37, 0xbe, 0x59, 0xe8, 0xe9, 0x3d, 0x9e, 0x34, 0xd0, 0x3e,
  0xf6, 0xea, 0x27, 0x3e, 0x36, 0x97, 0xc8, 0xbe, 0xc7, 0x71, 0x6c, 0x3e,
  0xad, 0x99, 0xb0, 0xbc, 0x80, 0xc6, 0x39, 0xbd, 0x27, 0x9d, 0xe3, 0x3c,
  0xf8, 0x7e, 0xf1, 0x3d, 0xe4, 0x3b, 0x83, 0xbe, 0xbe, 0x6c, 0xab, 0xbd,
  0x75, 0xfd, 0x68, 0x3e, 0xb2, 0x82, 0x67, 0xbe, 0xbf, 0x91, 0x2e, 0x3e,
  0x7c, 0xea, 0x73, 0xbb, 0x2d, 0x06, 0x83, 0xbe, 0xe0, 0x72, 0x9e, 0xbe,
  0x40, 0x3c, 0x41, 0xbe, 0x9c, 0x33, 0x78, 0x3d, 0x9e, 0x0b, 0x96, 0x3d,
  0x66, 0xc7, 0x90, 0xbe, 0x73, 0x78, 0x1c, 0xbd, 0xce, 0xf2, 0x1d, 0x3e,
  0x00, 0x23, 0xa0, 0x3e, 0xa1, 0xff, 0x73, 0xbe, 0x73, 0x44, 0xf6, 0xbd,
  0x00, 0x6b, 0x82, 0x3b, 0xc1, 0xf4, 0x6c, 0x3e, 0x62, 0x15, 0x68, 0xbe,
  0x86, 0xdd, 0x37, 0xbd, 0x3f, 0x5a, 0xa4, 0xbe, 0x2e, 0xc0, 0x9a, 0x3e,
  0xfb, 0x9d, 0x19, 0x3e, 0x6b, 0x3a, 0xd4, 0xbd, 0x04, 0x96, 0x8d, 0x3d,
  0x3c, 0x1e, 0x83, 0xbd, 0xd2, 0x40, 0x4e, 0x3e, 0x5c, 0xac, 0xef, 0x3d,
  0xe0, 0xff, 0x62, 0xbc, 0x45, 0xeb, 0x82, 0xbe, 0x2f, 0x17, 0x8b, 0xbd,
  0xc4, 0x33, 0x87, 0xbe, 0xba, 0x2d, 0x0c, 0x3d, 0x81, 0xe4, 0x7d, 0x3e,
  0xb2, 0x16, 0x65, 0x3e, 0x3f, 0x0c, 0xd8, 0xbc, 0x8b, 0xd1, 0x93, 0x3e,
  0x49, 0xdd, 0x25, 0xbc, 0x9b, 0xfe, 0xb2, 0x3e, 0x88, 0xf9, 0x9c, 0xbe,
  0x5a, 0xe4, 0x69, 0xbe, 0xa3, 0x48, 0x91, 0x3e, 0x46, 0x1b, 0x14, 0xbe,
  0x04, 0xee, 0x00, 0xc0, 0x1e, 0x66, 0xb1, 0xbe, 0x6d, 0x7a, 0xf9, 0xbd,
  0x92, 0x2b, 0x51, 0x3e, 0x19, 0x66, 0xd8, 0xbd, 0xe3, 0xdd, 0x95, 0x3e,
  0x93, 0x46, 0x8a, 0xbd, 0xea, 0x30, 0x1c, 0x3e, 0x87, 0xa3, 0x05, 0x3f,
  0x05, 0xbf, 0x48, 0xbe, 0x02, 0x1f, 0x6b, 0x3d, 0xfa, 0x13, 0xd5, 0x3c,
  0x03, 0x58, 0xd6, 0xbe, 0x14, 0x7b, 0x97, 0x3d, 0xc6, 0xcd, 0x17, 0x3d,
  0x8d, 0xbc, 0x7a, 0xbe, 0x0b, 0xc9, 0xb4, 0xbe, 0xa5, 0x06, 0xae, 0x3e,
  0xd9, 0x34, 0xc1, 0xbe, 0x1a, 0xf4, 0x82, 0x3e, 0x3c, 0x05, 0x97, 0xbe,
  0xcc, 0xfe, 0x5e, 0x3e, 0x7b, 0xfb, 0x6e, 0x3e, 0x13, 0x95, 0x92, 0xbe,
  0x62, 0x64, 0xc5, 0x3e, 0xfa, 0x56, 0x9b, 0x3d, 0xfa, 0xcd, 0xfd, 0x3d,
  0x06, 0x3e, 0x0f, 0xbf, 0x65, 0xfe, 0xd4, 0x3d, 0xe4, 0x57, 0xcf, 0xbd,
  0x63, 0x89, 0x92, 0xbe, 0x31, 0xcc, 0x37, 0xbe, 0xc4, 0x81, 0xa5, 0xbf,
  0xc2, 0xe7, 0x2e, 0x3e, 0xec, 0x0f, 0xe5, 0xbc, 0xd6, 0xc6, 0x99, 0xbe,
  0x7f, 0x13, 0x95, 0x3e, 0x8f, 0xb0, 0xbd, 0xbe, 0xd9, 0x75, 0xa8, 0xbc,
  0x15, 0x27, 0x0a, 0x3f, 0x15, 0xae, 0xb9, 0x3c, 0xe7, 0x83, 0x54, 0xbd,
  0xfb, 0xa4, 0x83, 0xbe, 0x12, 0x86, 0x03, 0xbe, 0x22, 0x62, 0x3a, 0xc0,
  0x5f, 0x90, 0x57, 0xbe, 0x1b, 0xcb, 0xac, 0x3e, 0x4c, 0xee, 0x83, 0x3e,
  0xad, 0xea, 0x5e, 0x3d, 0x4e, 0x3e, 0x05, 0x3e, 0x0e, 0xa5, 0x06, 0xbe,
  0xe2, 0x7b, 0xb4, 0x3e, 0x6c, 0x89, 0xd7, 0xbd, 0x21, 0x05, 0x29, 0xbc,
  0x4b, 0xec, 0x8f, 0x3c, 0xee, 0x07, 0x53, 0x3e, 0x81, 0x0d, 0xd7, 0xbd,
  0x4f, 0x83, 0xcf, 0xbf, 0x2d, 0x09, 0x83, 0x3e, 0x3e, 0xb1, 0x5c, 0xc0,
  0xa7, 0xa2, 0x30, 0x3d, 0x2f, 0xea, 0xbc, 0x3d, 0x95, 0xcb, 0x92, 0x3d,
  0x65, 0x58, 0xe6, 0xbd, 0x1e, 0x54, 0x17, 0x3d, 0x51, 0x24, 0xb1, 0xbe,
  0xc6, 0x0e, 0x0d, 0xc0, 0xe6, 0xe3, 0x62, 0x3e, 0xad, 0x00, 0x34, 0xbf,
  0x44, 0x91, 0xa7, 0xbe, 0x70, 0x28, 0x1a, 0xc0, 0x11, 0x24, 0xd6, 0x3e,
  0x36, 0x37, 0x2b, 0x3e, 0xef, 0xd9, 0x85, 0xbd, 0x35, 0x11, 0x7e, 0x3e,
  0xe0, 0xd3, 0xcd, 0xbe, 0x11, 0xdc, 0xa5, 0x3e, 0x40, 0x2d, 0x15, 0x3d,
  0x7e, 0xd3, 0x81, 0x3c, 0x92, 0xe9, 0x4f, 0xbd, 0xa9, 0xa3, 0x1e, 0xc0,
  0x40, 0xda, 0x96, 0x3d, 0x3a, 0x0b, 0x4f, 0x3d, 0xe9, 0x3b, 0xc0, 0x3e,
  0xea, 0x07, 0x19, 0x3e, 0x63, 0xdb, 0x70, 0xbd, 0x12, 0x28, 0xc6, 0xbf,
  0xc8, 0x0d, 0x47, 0xbe, 0x2b, 0x7a, 0x76, 0xbb, 0x72, 0x3e, 0x44, 0x3c,
  0xf7, 0xa0, 0x61, 0xbe, 0x52, 0x44, 0x2f, 0xbd, 0x59, 0x75, 0x19, 0x3e,
  0x28, 0x95, 0xd3, 0xbd, 0x77, 0x9f, 0xed, 0xbf, 0xeb, 0x46, 0x24, 0xc0,
  0xcb, 0xf5, 0xfe, 0x3e, 0xae, 0xe1, 0xb3, 0xbe, 0x64, 0xf3, 0x2e, 0xbf,
  0x6a, 0xdf, 0x2b, 0x3e, 0xfa, 0x8a, 0xb6, 0xbe, 0x8a, 0x96, 0x4f, 0xbe,
  0xe5, 0xf4, 0xc6, 0x3d, 0xee, 0xd4, 0xf4, 0xbd, 0xc6, 0x11, 0x69, 0x3e,
  0xcf, 0xb3, 0xa3, 0xbd, 0x60, 0x5b, 0x31, 0xbf, 0xff, 0x5a, 0x88, 0x3e,
  0x26, 0xbe, 0x7b, 0xbc, 0xc7, 0x83, 0x90, 0x3e, 0xb4, 0xf2, 0x72, 0x3e,
  0xfa, 0x78, 0x56, 0xbd, 0x6a, 0x1a, 0x0b, 0x40, 0x3c, 0x91, 0x85, 0xbe,
  0x94, 0x5d, 0xc9, 0x3c, 0x0f, 0x02, 0x9e, 0x3e, 0x60, 0xa7, 0x79, 0x3c,
  0x82, 0x84, 0xbd, 0xbf, 0x9b, 0x43, 0x3c, 0xbe, 0xa0, 0xe3, 0xd5, 0xbd,
  0x33, 0xeb, 0x97, 0xbe, 0x49, 0xd3, 0x23, 0xbd, 0x89, 0x21, 0x22, 0xbf,
  0x86, 0x32, 0x27, 0x3f, 0x15, 0xf4, 0x9d, 0xbe, 0xa5, 0x32, 0xfe, 0x3e,
  0x1c, 0xee, 0xb8, 0xbd, 0x8b, 0x6c, 0xfa, 0x3f, 0x04, 0xa9, 0x01, 0x3f,
  0x1e, 0x05, 0x2b, 0xbe, 0xb1, 0x6e, 0x02, 0x3e, 0x4a, 0xff, 0xff, 0xff,
  0x04, 0x00, 0x00, 0x00, 0x18, 0x00, 0x00, 0x00, 0x0b, 0x48, 0xdf, 0xbe,
  0x23, 0x60, 0x49, 0x3a, 0x08, 0xc7, 0x22, 0x3e, 0xfb, 0xb7, 0x24, 0x3e,
  0xc4, 0x2d, 0xa5, 0x3d, 0x33, 0x3e, 0x48, 0x3e, 0xc8, 0xfb, 0xff, 0xff,
  0xcc, 0xfb, 0xff, 0xff, 0x0f, 0x00, 0x00, 0x00, 0x4d, 0x4c, 0x49, 0x52,
  0x20, 0x43, 0x6f, 0x6e, 0x76, 0x65, 0x72, 0x74, 0x65, 0x64, 0x2e, 0x00,
  0x01, 0x00, 0x00, 0x00, 0x14, 0x00, 0x00, 0x00, 0x00, 0x00, 0x0e, 0x00,
  0x18, 0x00, 0x14, 0x00, 0x10, 0x00, 0x0c, 0x00, 0x08, 0x00, 0x04, 0x00,
  0x0e, 0x00, 0x00, 0x00, 0x14, 0x00, 0x00, 0x00, 0x1c, 0x00, 0x00, 0x00,
  0xec, 0x00, 0x00, 0x00, 0xf0, 0x00, 0x00, 0x00, 0xf4, 0x00, 0x00, 0x00,
  0x04, 0x00, 0x00, 0x00, 0x6d, 0x61, 0x69, 0x6e, 0x00, 0x00, 0x00, 0x00,
  0x03, 0x00, 0x00, 0x00, 0x94, 0x00, 0x00, 0x00, 0x50, 0x00, 0x00, 0x00,
  0x14, 0x00, 0x00, 0x00, 0x00, 0x00, 0x0e, 0x00, 0x1a, 0x00, 0x14, 0x00,
  0x10, 0x00, 0x0c, 0x00, 0x0b, 0x00, 0x04, 0x00, 0x0e, 0x00, 0x00, 0x00,
  0x1c, 0x00, 0x00, 0x00, 0x00, 0x00, 0x00, 0x09, 0x1c, 0x00, 0x00, 0x00,
  0x20, 0x00, 0x00, 0x00, 0x01, 0x00, 0x00, 0x00, 0x00, 0x00, 0x06, 0x00,
  0x08, 0x00, 0x04, 0x00, 0x06, 0x00, 0x00, 0x00, 0x00, 0x00, 0x80, 0x3f,
  0x01, 0x00, 0x00, 0x00, 0x07, 0x00, 0x00, 0x00, 0x01, 0x00, 0x00, 0x00,
  0x06, 0x00, 0x00, 0x00, 0xce, 0xff, 0xff, 0xff, 0x10, 0x00, 0x00, 0x00,
  0x00, 0x00, 0x00, 0x08, 0x0c, 0x00, 0x00, 0x00, 0x10, 0x00, 0x00, 0x00,
  0x8c, 0xfc, 0xff, 0xff, 0x01, 0x00, 0x00, 0x00, 0x06, 0x00, 0x00, 0x00,
  0x03, 0x00, 0x00, 0x00, 0x05, 0x00, 0x00, 0x00, 0x02, 0x00, 0x00, 0x00,
  0x01, 0x00, 0x00, 0x00, 0x00, 0x00, 0x0e, 0x00, 0x16, 0x00, 0x00, 0x00,
  0x10, 0x00, 0x0c, 0x00, 0x0b, 0x00, 0x04, 0x00, 0x0e, 0x00, 0x00, 0x00,
  0x18, 0x00, 0x00, 0x00, 0x00, 0x00, 0x00, 0x08, 0x18, 0x00, 0x00, 0x00,
  0x1c, 0x00, 0x00, 0x00, 0x00, 0x00, 0x06, 0x00, 0x08, 0x00, 0x07, 0x00,
  0x06, 0x00, 0x00, 0x00, 0x00, 0x00, 0x00, 0x01, 0x01, 0x00, 0x00, 0x00,
  0x05, 0x00, 0x00, 0x00, 0x03, 0x00, 0x00, 0x00, 0x00, 0x00, 0x00, 0x00,
  0x03, 0x00, 0x00, 0x00, 0x04, 0x00, 0x00, 0x00, 0x01, 0x00, 0x00, 0x00,
  0x07, 0x00, 0x00, 0x00, 0x01, 0x00, 0x00, 0x00, 0x00, 0x00, 0x00, 0x00,
  0x08, 0x00, 0x00, 0x00, 0xd0, 0x02, 0x00, 0x00, 0x7c, 0x02, 0x00, 0x00,
  0x24, 0x02, 0x00, 0x00, 0xd8, 0x01, 0x00, 0x00, 0x74, 0x01, 0x00, 0x00,
  0xe0, 0x00, 0x00, 0x00, 0x60, 0x00, 0x00, 0x00, 0x04, 0x00, 0x00, 0x00,
  0x66, 0xfd, 0xff, 0xff, 0x00, 0x00, 0x00, 0x01, 0x14, 0x00, 0x00, 0x00,
  0x1c, 0x00, 0x00, 0x00, 0x1c, 0x00, 0x00, 0x00, 0x08, 0x00, 0x00, 0x00,
  0x34, 0x00, 0x00, 0x00, 0x02, 0x00, 0x00, 0x00, 0xff, 0xff, 0xff, 0xff,
  0x06, 0x00, 0x00, 0x00, 0x50, 0xfd, 0xff, 0xff, 0x1b, 0x00, 0x00, 0x00,
  0x53, 0x74, 0x61, 0x74, 0x65, 0x66, 0x75, 0x6c, 0x50, 0x61, 0x72, 0x74,
  0x69, 0x74, 0x69, 0x6f, 0x6e, 0x65, 0x64, 0x43, 0x61, 0x6c, 0x6c, 0x5f,
  0x31, 0x3a, 0x30, 0x00, 0x02, 0x00, 0x00, 0x00, 0x01, 0x00, 0x00, 0x00,
  0x06, 0x00, 0x00, 0x00, 0xbe, 0xfd, 0xff, 0xff, 0x00, 0x00, 0x00, 0x01,
  0x14, 0x00, 0x00, 0x00, 0x1c, 0x00, 0x00, 0x00, 0x1c, 0x00, 0x00, 0x00,
  0x07, 0x00, 0x00, 0x00, 0x58, 0x00, 0x00, 0x00, 0x02, 0x00, 0x00, 0x00,
  0xff, 0xff, 0xff, 0xff, 0x06, 0x00, 0x00, 0x00, 0xa8, 0xfd, 0xff, 0xff,
  0x3c, 0x00, 0x00, 0x00, 0x73, 0x65, 0x71, 0x75, 0x65, 0x6e, 0x74, 0x69,
  0x61, 0x6c, 0x5f, 0x31, 0x2f, 0x64, 0x65, 0x6e, 0x73, 0x65, 0x5f, 0x31,
  0x5f, 0x32, 0x2f, 0x4d, 0x61, 0x74, 0x4d, 0x75, 0x6c, 0x3b, 0x73, 0x65,
  0x71, 0x75, 0x65, 0x6e, 0x74, 0x69, 0x61, 0x6c, 0x5f, 0x31, 0x2f, 0x64,
  0x65, 0x6e, 0x73, 0x65, 0x5f, 0x31, 0x5f, 0x32, 0x2f, 0x42, 0x69, 0x61,
  0x73, 0x41, 0x64, 0x64, 0x00, 0x00, 0x00, 0x00, 0x02, 0x00, 0x00, 0x00,
  0x01, 0x00, 0x00, 0x00, 0x06, 0x00, 0x00, 0x00, 0x3a, 0xfe, 0xff, 0xff,
  0x00, 0x00, 0x00, 0x01, 0x14, 0x00, 0x00, 0x00, 0x1c, 0x00, 0x00, 0x00,
  0x1c, 0x00, 0x00, 0x00, 0x06, 0x00, 0x00, 0x00, 0x6c, 0x00, 0x00, 0x00,
  0x02, 0x00, 0x00, 0x00, 0xff, 0xff, 0xff, 0xff, 0x20, 0x00, 0x00, 0x00,
  0x24, 0xfe, 0xff, 0xff, 0x52, 0x00, 0x00, 0x00, 0x73, 0x65, 0x71, 0x75,
  0x65, 0x6e, 0x74, 0x69, 0x61, 0x6c, 0x5f, 0x31, 0x2f, 0x64, 0x65, 0x6e,
  0x73, 0x65, 0x5f, 0x31, 0x2f, 0x4d, 0x61, 0x74, 0x4d, 0x75, 0x6c, 0x3b,
  0x73, 0x65, 0x71, 0x75, 0x65, 0x6e, 0x74, 0x69, 0x61, 0x6c, 0x5f, 0x31,
  0x2f, 0x64, 0x65, 0x6e, 0x73, 0x65, 0x5f, 0x31, 0x2f, 0x52, 0x65, 0x6c,
  0x75, 0x3b, 0x73, 0x65, 0x71, 0x75, 0x65, 0x6e, 0x74, 0x69, 0x61, 0x6c,
  0x5f, 0x31, 0x2f, 0x64, 0x65, 0x6e, 0x73, 0x65, 0x5f, 0x31, 0x2f, 0x42,
  0x69, 0x61, 0x73, 0x41, 0x64, 0x64, 0x00, 0x00, 0x02, 0x00, 0x00, 0x00,
  0x01, 0x00, 0x00, 0x00, 0x20, 0x00, 0x00, 0x00, 0x1a, 0xff, 0xff, 0xff,
  0x00, 0x00, 0x00, 0x01, 0x10, 0x00, 0x00, 0x00, 0x10, 0x00, 0x00, 0x00,
  0x05, 0x00, 0x00, 0x00, 0x44, 0x00, 0x00, 0x00, 0xa4, 0xfe, 0xff, 0xff,
  0x36, 0x00, 0x00, 0x00, 0x73, 0x65, 0x71, 0x75, 0x65, 0x6e, 0x74, 0x69,
  0x61, 0x6c, 0x5f, 0x31, 0x2f, 0x64, 0x65, 0x6e, 0x73, 0x65, 0x5f, 0x31,
  0x2f, 0x52, 0x65, 0x6c, 0x75, 0x3b, 0x73, 0x65, 0x71, 0x75, 0x65, 0x6e,
  0x74, 0x69, 0x61, 0x6c, 0x5f, 0x31, 0x2f, 0x64, 0x65, 0x6e, 0x73, 0x65,
  0x5f, 0x31, 0x2f, 0x42, 0x69, 0x61, 0x73, 0x41, 0x64, 0x64, 0x00, 0x00,
  0x01, 0x00, 0x00, 0x00, 0x20, 0x00, 0x00, 0x00, 0x7a, 0xff, 0xff, 0xff,
  0x00, 0x00, 0x00, 0x01, 0x10, 0x00, 0x00, 0x00, 0x10, 0x00, 0x00, 0x00,
  0x04, 0x00, 0x00, 0x00, 0x28, 0x00, 0x00, 0x00, 0x04, 0xff, 0xff, 0xff,
  0x1b, 0x00, 0x00, 0x00, 0x73, 0x65, 0x71, 0x75, 0x65, 0x6e, 0x74, 0x69,
  0x61, 0x6c, 0x5f, 0x31, 0x2f, 0x64, 0x65, 0x6e, 0x73, 0x65, 0x5f, 0x31,
  0x2f, 0x4d, 0x61, 0x74, 0x4d, 0x75, 0x6c, 0x00, 0x02, 0x00, 0x00, 0x00,
  0x20, 0x00, 0x00, 0x00, 0x02, 0x00, 0x00, 0x00, 0xc2, 0xff, 0xff, 0xff,
  0x00, 0x00, 0x00, 0x01, 0x10, 0x00, 0x00, 0x00, 0x10, 0x00, 0x00, 0x00,
  0x03, 0x00, 0x00, 0x00, 0x1c, 0x00, 0x00, 0x00, 0x4c, 0xff, 0xff, 0xff,
  0x0f, 0x00, 0x00, 0x00, 0x61, 0x72, 0x69, 0x74, 0x68, 0x2e, 0x63, 0x6f,
  0x6e, 0x73, 0x74, 0x61, 0x6e, 0x74, 0x31, 0x00, 0x02, 0x00, 0x00, 0x00,
  0x06, 0x00, 0x00, 0x00, 0x20, 0x00, 0x00, 0x00, 0x00, 0x00, 0x16, 0x00,
  0x18, 0x00, 0x14, 0x00, 0x00, 0x00, 0x10, 0x00, 0x0c, 0x00, 0x08, 0x00,
  0x00, 0x00, 0x00, 0x00, 0x00, 0x00, 0x07, 0x00, 0x16, 0x00, 0x00, 0x00,
  0x00, 0x00, 0x00, 0x01, 0x10, 0x00, 0x00, 0x00, 0x10, 0x00, 0x00, 0x00,
  0x02, 0x00, 0x00, 0x00, 0x1c, 0x00, 0x00, 0x00, 0xa0, 0xff, 0xff, 0xff,
  0x0e, 0x00, 0x00, 0x00, 0x61, 0x72, 0x69, 0x74, 0x68, 0x2e, 0x63, 0x6f,
  0x6e, 0x73, 0x74, 0x61, 0x6e, 0x74, 0x00, 0x00, 0x01, 0x00, 0x00, 0x00,
  0x06, 0x00, 0x00, 0x00, 0x00, 0x00, 0x16, 0x00, 0x1c, 0x00, 0x18, 0x00,
  0x00, 0x00, 0x14, 0x00, 0x10, 0x00, 0x0c, 0x00, 0x00, 0x00, 0x00, 0x00,
  0x08, 0x00, 0x07, 0x00, 0x16, 0x00, 0x00, 0x00, 0x00, 0x00, 0x00, 0x01,
  0x14, 0x00, 0x00, 0x00, 0x20, 0x00, 0x00, 0x00, 0x20, 0x00, 0x00, 0x00,
  0x01, 0x00, 0x00, 0x00, 0x3c, 0x00, 0x00, 0x00, 0x02, 0x00, 0x00, 0x00,
  0xff, 0xff, 0xff, 0xff, 0x02, 0x00, 0x00, 0x00, 0x04, 0x00, 0x04, 0x00,
  0x04, 0x00, 0x00, 0x00, 0x1e, 0x00, 0x00, 0x00, 0x73, 0x65, 0x72, 0x76,
  0x69, 0x6e, 0x67, 0x5f, 0x64, 0x65, 0x66, 0x61, 0x75, 0x6c, 0x74, 0x5f,
  0x6b, 0x65, 0x72, 0x61, 0x73, 0x5f, 0x74, 0x65, 0x6e, 0x73, 0x6f, 0x72,
  0x3a, 0x30, 0x00, 0x00, 0x02, 0x00, 0x00, 0x00, 0x01, 0x00, 0x00, 0x00,
  0x02, 0x00, 0x00, 0x00, 0x02, 0x00, 0x00, 0x00, 0x20, 0x00, 0x00, 0x00,
  0x04, 0x00, 0x00, 0x00, 0xf4, 0xff, 0xff, 0xff, 0x19, 0x00, 0x00, 0x00,
  0x00, 0x00, 0x00, 0x19, 0x0c, 0x00, 0x0c, 0x00, 0x0b, 0x00, 0x00, 0x00,
  0x00, 0x00, 0x04, 0x00, 0x0c, 0x00, 0x00, 0x00, 0x09, 0x00, 0x00, 0x00,
  0x00, 0x00, 0x00, 0x09
};

#endif //LAYER_MODEL_H